#ifndef __HX83112A_PARAM_H__
#define __HX83112A_PARAM_H__
#include <linux/types.h>
#include <linux/kernel.h>

#define EXTEND_BRIGHTNESS	306
#define UI_MAX_BRIGHTNESS	255
#define UI_DEFAULT_BRIGHTNESS	128

struct lcd_seq_info {
	unsigned char	*cmd;
	unsigned int	len;
	unsigned int	sleep;
};

static u8 LM3632_INIT[] = {
	0x09, 0x41,
	0x02, 0x70,
	0x03, 0x8D,
	0x04, 0x07,
	0x05, 0xFF,
	0x0A, 0x19,
	0x0D, 0x1C,
	0x0E, 0x1E,
	0x0F, 0x1E,
	0x0C, 0x1F,
};

static const unsigned char SEQ_SET_BANK_00[] = {
	0xBD,
	0x00,
};

static const unsigned char SEQ_SET_BANK_01[] = {
	0xBD,
	0x01,
};

static const unsigned char SEQ_SET_BANK_02[] = {
	0xBD,
	0x02,
};

static const unsigned char SEQ_SET_BANK_03[] = {
	0xBD,
	0x03,
};

static const unsigned char SEQ_SET_EXTC[] = {
	0xB9,
	0x83, 0x11, 0x2A
};

static const unsigned char SEQ_SET_E9_E8[] = {
	0xE9,
	0xE8,
};

static const unsigned char SEQ_SET_E9_C3[] = {
	0xE9,
	0xC3,
};

static const unsigned char SEQ_SET_E9_C4[] = {
	0xE9,
	0xC4,
};

static const unsigned char SEQ_SET_E9_C6[] = {
	0xE9,
	0xC6,
};

static const unsigned char SEQ_SET_STARTEN[] = {
	0xCF,
	0xC0,
};

static const unsigned char SEQ_SET_E9_3F[] = {
	0xE9,
	0x3F,
};

static const unsigned char SEQ_SET_PWM_FREQ[] = {
	0xC9,
	0x04, 0x68, 0x49, 0x01
};

static const unsigned char SEQ_HX83112A_BL[] = {
	0x51,
	0x00, 0x00,
};

static const unsigned char SEQ_HX83112A_BLON[] = {
	0x53,
	0x2C,
};

static const unsigned char SEQ_HX83112A_55[] = {
	0x55,
	0x03,
};

static const unsigned char SEQ_SET_E4[] = {
	0xE4,
	0x2D, 0x01, 0x2C, 0x00, 0x08, 0x00, 0x10, 0x08,
	0x04, 0x04, 0x32, 0x66, 0x8E, 0xB6, 0xD4, 0xE3,
	0xF0, 0xF7, 0xFF, 0xFF, 0xFF, 0xEF, 0x10, 0x38,
	0x10, 0x1E, 0x01, 0x00, 0x10, 0x80, 0x00, 0x00,
	0x90, 0x20, 0x20, 0x20, 0x20, 0x00, 0x00, 0x60,
};

static const unsigned char SEQ_SET_OTP[] = {
	0xBB,
	0x00,
};

static const unsigned char SEQ_SET_E9_DB[] = {
	0xE9,
	0xDB,
};

static const unsigned char SEQ_SET_E4_00[] = {
	0xE4,
	0x00, 0x00, 0x00, 0x00, 0x00, 0x00, 0x00,
};

static const unsigned char SEQ_POWER_SETTING[] = {
	0xB1,
	0x08, 0x17, 0x17, 0x80, 0x80, 0x54, 0x4A, 0xAA
};

static const unsigned char SEQ_DISPLAY_REGISTER[] = {
	0xB2,
	0x00, 0x02, 0x00, 0x90, 0x24, 0x00, 0x08, 0x19,
	0xEA, 0x11, 0x01, 0x00, 0x15, 0xA1, 0x07
};

static const unsigned char SEQ_PANEL_DRIVING_TIMING[] = {
	0xB4,
	0xD0, 0x1D, 0xD0, 0x1D, 0xD0, 0x1D, 0x05, 0xB6, 0x05,
	0xB6, 0x00, 0xC6, 0x00, 0xFF, 0x00, 0xFF, 0x00, 0x00,
	0x03, 0x03, 0x00, 0x27, 0x11, 0x07, 0x14, 0x00, 0x90
};

static const unsigned char SEQ_SET_APO[] = {
	0xB1,
	0xB6,
};

static const unsigned char SEQ_SET_FRE_PATTERN[] = {
	0xB2,
	0x50, 0x10, 0x32, 0x54, 0x76, 0x98, 0xBA, 0xBC,
	0xFE, 0xFF, 0x80, 0x00, 0xFF, 0x00, 0x40
};

static const unsigned char SEQ_SET_B4[] = {
	0xB4,
	0x34, 0x12, 0x12, 0x22, 0x88, 0x12, 0x12, 0x00,
	0x73
};

static const unsigned char SEQ_SET_BF[] = {
	0xBF,
	0x0F, 0x00, 0x00, 0x83, 0x9F, 0x3E, 0x00, 0x05,
	0x00
};

static const unsigned char SEQ_SOURCE_BIAS_GAMMA[] = {
	0xC0,
	0x23, 0x23, 0x00, 0x45, 0x00, 0x00, 0x09
};

static const unsigned char SEQ_SET_C7[] = {
	0xC7,
	0x70, 0x00, 0x04, 0xE0, 0x33, 0x00
};

static const unsigned char SEQ_SET_S1[] = {
	0xCC,
	0x08,
};

static const unsigned char SEQ_SET_POWER[] = {
	0xD2,
	0x2D, 0x2D,
};

static const unsigned char SEQ_SET_GIP_D3[] = {
	0xD3,
	0x50, 0x00, 0x00, 0x00, 0x00, 0x01, 0x00, 0x08,
	0x08, 0x03, 0x03, 0x22, 0x28, 0x07, 0x07, 0x07,
	0x07, 0x32, 0x10, 0x06, 0x00, 0x06, 0x32, 0x10,
	0x06, 0x00, 0x06
};

static const unsigned char SEQ_SET_GIP_D5[] = {
	0xD5,
	0x18, 0x18, 0x18, 0x18, 0x18, 0x18, 0x18, 0x18,
	0x18, 0x18, 0x18, 0x18, 0x18, 0x18, 0x18, 0x18,
	0x18, 0x18, 0x2F, 0x2F, 0x30, 0x30, 0x31, 0x31,
	0xC0, 0xC0, 0x40, 0x40, 0x18, 0x18, 0x01, 0x00,
	0x03, 0x02, 0x02, 0x01, 0x00, 0x03, 0x19, 0x19,
	0x18, 0x18, 0x25, 0x24, 0x18, 0x18, 0x18, 0x18
};

static const unsigned char SEQ_SET_GIP_D6[] = {
	0xD6,
	0x18, 0x18, 0x18, 0x18, 0x18, 0x18, 0x18, 0x18,
	0x18, 0x18, 0x18, 0x18, 0x18, 0x18, 0x18, 0x18,
	0x18, 0x18, 0x2F, 0x2F, 0x30, 0x30, 0x31, 0x31,
	0x40, 0x40, 0x40, 0x40, 0x18, 0x18, 0x02, 0x03,
	0x00, 0x01, 0x01, 0x02, 0x03, 0x00, 0x18, 0x18,
	0x19, 0x19, 0x24, 0x25, 0x18, 0x18, 0x18, 0x18
};

static const unsigned char SEQ_SET_GIP_D8_POWER_ON[] = {
	0xD8,
	0xAA, 0xAA, 0xBF, 0xBA, 0xAA, 0xAA, 0xAA, 0xAA,
	0xBF, 0xBA, 0xAA, 0xAA, 0xAA, 0xAA, 0xBF, 0xAB,
	0xFF, 0xAA, 0xAA, 0xAA, 0xBF, 0xAB, 0xFF, 0xAA
};

static const unsigned char SEQ_SET_GIP_D8_01[] = {
	0xD8,
	0xAA, 0xAA, 0xBF, 0xEE, 0xAB, 0xEA, 0xAA, 0xAA,
	0xBF, 0xEE, 0xAB, 0xEA, 0xAA, 0xAA, 0xBF, 0xEE,
	0xAB, 0xEA, 0xAA, 0xAA, 0xBF, 0xEE, 0xAB, 0xEA
};

static const unsigned char SEQ_SET_GIP_D8_02[] = {
	0xD8,
	0xAA, 0xAA, 0xBF, 0xEE, 0xAB, 0xEA, 0xAA, 0xAA,
	0xBF, 0xEE, 0xAB, 0xEA
};

static const unsigned char SEQ_SET_GIP_D8_03_LPWG[] = {
	0xD8,
	0xAA, 0xAA, 0xAA, 0xBA, 0xAA, 0xAA, 0xAA, 0xAA,
	0xAA, 0xBA, 0xAA, 0xAA, 0xAA, 0xAA, 0xBF, 0xEE,
	0xAA, 0xAA, 0xAA, 0xAA, 0xBF, 0xEE, 0xAA, 0xAA
};

static const unsigned char SEQ_SET_GIP_E7_00_TOUCH[] = {
	0xE7,
	0x0E, 0x0E, 0x1E, 0x66, 0x1C, 0x66, 0x00, 0x50,
	0x02, 0x02, 0x00, 0x00, 0x02, 0x02, 0x02, 0x05,
	0x14, 0x14, 0x32, 0xB9, 0x23, 0xB9, 0x08
};

static const unsigned char SEQ_SET_GIP_E7_01_TOUCH[] = {
	0xE7,
	0x02, 0x00, 0xA4, 0x01, 0xA8, 0x0D, 0xA6, 0x0E
};

static const unsigned char SEQ_SET_GIP_E7_02_TOUCH[] = {
	0xE7,
	0x00, 0x00, 0x08, 0x00, 0x01, 0x00, 0x00, 0x00,
	0x00, 0x00, 0x00, 0x00, 0x00, 0x00, 0x00, 0x00,
	0x00, 0x00, 0x00, 0x00, 0x00, 0x00, 0x04, 0x00,
	0x00, 0x00, 0x00, 0x02, 0x00
};

static const unsigned char SEQ_SET_CB[] = {
	0xCB,
	0xD1, 0xD6
};

static const unsigned char SEQ_SET_D3_00[] = {
	0xD3,
	0x01, 0x09, 0x2E
};

static const unsigned char SEQ_SET_D3_01[] = {
	0xD3,
	0x4A, 0x00, 0x81
};

static const unsigned char SEQ_SLEEP_OUT[] = {
	0x11,
};

static const unsigned char SEQ_DISPLAY_ON[] = {
	0x29,
};

static const unsigned char SEQ_DISPLAY_OFF[] = {
	0x28,
	0x00, 0x00
};

static const unsigned char SEQ_SLEEP_IN[] = {
	0x10,
	0x00, 0x00
};

static const unsigned char SEQ_SET_C1_BANK_00[] = {
	0xC1,
	0x01,
};

static const unsigned char SEQ_SET_C1_BANK_01_R[] = {
	0xC1,
	0xFD, 0xF7, 0xF0, 0xEB, 0xE6, 0xE0, 0xDA, 0xCD,
	0xC5, 0xBF, 0xB8, 0xB1, 0xAA, 0xA3, 0x9D, 0x97,
	0x91, 0x8B, 0x85, 0x7B, 0x71, 0x68, 0x5F, 0x57,
	0x50, 0x49, 0x43, 0x3D, 0x37, 0x31, 0x2B, 0x26,
	0x22, 0x1D, 0x19, 0x14, 0x10, 0x0C, 0x07, 0x04,
	0x02, 0x02, 0x02, 0x01, 0x00, 0xA0, 0xD4, 0xD5,
	0xB0, 0x09, 0x46, 0x1A, 0xAF, 0x11, 0x49, 0xE2,
	0xC0,
};

static const unsigned char SEQ_SET_C1_BANK_02_G[] = {
	0xC1,
	0xFD, 0xF7, 0xF0, 0xEB, 0xE6, 0xE0, 0xDA, 0xCD,
	0xC5, 0xBF, 0xB8, 0xB1, 0xAA, 0xA3, 0x9D, 0x97,
	0x91, 0x8B, 0x85, 0x7B, 0x71, 0x68, 0x5F, 0x57,
	0x50, 0x49, 0x43, 0x3D, 0x37, 0x31, 0x2B, 0x26,
	0x22, 0x1D, 0x19, 0x14, 0x10, 0x0C, 0x07, 0x04,
	0x02, 0x02, 0x02, 0x01, 0x00, 0xA0, 0xD4, 0xD5,
	0xB0, 0x09, 0x46, 0x1A, 0xAF, 0x11, 0x49, 0xE2,
	0xC0,
};

static const unsigned char SEQ_SET_C1_BANK_03_B[] = {
	0xC1,
	0xFD, 0xF7, 0xF0, 0xEB, 0xE6, 0xE0, 0xDA, 0xCD,
	0xC5, 0xBF, 0xB8, 0xB1, 0xAA, 0xA3, 0x9D, 0x97,
	0x91, 0x8B, 0x85, 0x7B, 0x71, 0x68, 0x5F, 0x57,
	0x50, 0x49, 0x43, 0x3D, 0x37, 0x31, 0x2B, 0x26,
	0x22, 0x1D, 0x19, 0x14, 0x10, 0x0C, 0x07, 0x04,
	0x02, 0x02, 0x02, 0x01, 0x00, 0xA0, 0xD4, 0xD5,
	0xB0, 0x09, 0x46, 0x1A, 0xAF, 0x11, 0x49, 0xE2,
	0xC0,
};

static const unsigned char SEQ_SET_E3_BANK_00_G[] = {
	0xE3,
	0x01, 0xAA, 0xAA, 0xAA, 0xAA, 0xAA, 0xAA, 0xAA,
	0xAA, 0x55, 0x55, 0x55, 0x55, 0x55, 0x55, 0x55,
	0x55, 0xAA, 0xAA, 0xAA, 0xAA, 0xAA, 0xAA, 0xAA,
	0xAA,
};

static const unsigned char SEQ_SET_E3_BANK_01_R[] = {
	0xE3,
	0xFF, 0xF7, 0xF0, 0xEB, 0xE6, 0xE0, 0xDA, 0xCD,
	0xC5, 0xBF, 0xB8, 0xB1, 0xAA, 0xA3, 0x9D, 0x97,
	0x91, 0x8B, 0x85, 0x7B, 0x71, 0x68, 0x5F, 0x57,
	0x50, 0x49, 0x43, 0x3D, 0x37, 0x31, 0x2B, 0x26,
	0x22, 0x1D, 0x19, 0x14, 0x10, 0x0C, 0x08, 0x05,
	0x03, 0x02, 0x01, 0x00, 0x00, 0xE0, 0xD4, 0xD5,
	0xB0, 0x09, 0x46, 0x1A, 0xAF, 0x11, 0x48, 0x27,
	0xC0,
};

static const unsigned char SEQ_SET_E3_BANK_02_G[] = {
	0xE3,
	0xFF, 0xF7, 0xF0, 0xEB, 0xE6, 0xE0, 0xDA, 0xCD,
	0xC5, 0xBF, 0xB8, 0xB1, 0xAA, 0xA3, 0x9D, 0x97,
	0x91, 0x8B, 0x85, 0x7B, 0x71, 0x68, 0x5F, 0x57,
	0x50, 0x49, 0x43, 0x3D, 0x37, 0x31, 0x2B, 0x26,
	0x22, 0x1D, 0x19, 0x14, 0x10, 0x0C, 0x08, 0x05,
	0x03, 0x02, 0x01, 0x00, 0x00, 0xE0, 0xD4, 0xD5,
	0xB0, 0x09, 0x46, 0x1A, 0xAF, 0x11, 0x48, 0x27,
	0xC0,
};

static const unsigned char SEQ_SET_E3_BANK_03_B[] = {
	0xE3,
	0xFF, 0xF7, 0xF0, 0xEB, 0xE6, 0xE0, 0xDA, 0xCD,
	0xC5, 0xBF, 0xB8, 0xB1, 0xAA, 0xA3, 0x9D, 0x97,
	0x91, 0x8B, 0x85, 0x7B, 0x71, 0x68, 0x5F, 0x57,
	0x50, 0x49, 0x43, 0x3D, 0x37, 0x31, 0x2B, 0x26,
	0x22, 0x1D, 0x19, 0x14, 0x10, 0x0C, 0x08, 0x05,
	0x03, 0x02, 0x01, 0x00, 0x00, 0xE0, 0xD4, 0xD5,
	0xB0, 0x09, 0x46, 0x1A, 0xAF, 0x11, 0x48, 0x27,
	0xC0,
};

/* platform brightness <-> bl reg */
static unsigned int brightness_table[EXTEND_BRIGHTNESS + 1] = {
	0,
	8, 17, 27, 37, 47, 56, 66, 76, 86, 95,
	105, 115, 125, 134, 144, 154, 164, 173, 183, 193,
	203, 213, 222, 232, 242, 252, 261, 271, 281, 291,
	300, 310, 320, 330, 339, 349, 359, 369, 379, 388,
	398, 408, 418, 427, 437, 447, 457, 466, 476, 486,
	496, 505, 515, 525, 535, 545, 554, 564, 574, 584,
	593, 603, 613, 623, 632, 642, 652, 662, 671, 681,
	691, 701, 710, 720, 730, 740, 750, 759, 769, 779,
	789, 798, 808, 818, 828, 837, 847, 857, 867, 876,
	886, 896, 906, 916, 925, 935, 945, 955, 964, 974,
	984, 994, 1003, 1013, 1023, 1033, 1042, 1052, 1062, 1072,
	1082, 1091, 1101, 1111, 1121, 1130, 1140, 1150, 1160, 1169,
	1179, 1189, 1199, 1208, 1218, 1228, 1238, 1248, 1263, 1278,
	1294, 1309, 1325, 1340, 1356, 1371, 1386, 1402, 1417, 1433,
	1448, 1464, 1479, 1494, 1510, 1525, 1541, 1556, 1572, 1587,
	1602, 1618, 1633, 1649, 1664, 1680, 1695, 1710, 1726, 1741,
	1757, 1772, 1788, 1803, 1819, 1834, 1849, 1865, 1880, 1896,
	1911, 1927, 1942, 1957, 1973, 1988, 2004, 2019, 2035, 2050,
	2065, 2081, 2096, 2112, 2127, 2143, 2158, 2173, 2189, 2204,
	2220, 2235, 2251, 2266, 2282, 2297, 2312, 2328, 2343, 2359,
	2374, 2390, 2405, 2420, 2436, 2451, 2467, 2482, 2498, 2513,
	2528, 2544, 2559, 2575, 2590, 2606, 2621, 2636, 2652, 2667,
	2683, 2698, 2714, 2729, 2745, 2760, 2775, 2791, 2806, 2822,
	2837, 2853, 2868, 2883, 2899, 2914, 2930, 2945, 2961, 2976,
	2991, 3007, 3022, 3038, 3053, 3069, 3084, 3099, 3115, 3130,
	3146, 3161, 3177, 3192, 3208, 3208, 3208, 3208, 3208, 3208,
	3208, 3208, 3208, 3208, 3208, 3208, 3208, 3208, 3208, 3208,
	3208, 3208, 3208, 3208, 3208, 3208, 3208, 3208, 3208, 3208,
	3208, 3208, 3208, 3208, 3208, 3208, 3208, 3208, 3208, 3208,
	3208, 3208, 3208, 3208, 3208, 3208, 3208, 3208, 3208, 3208,
	3208, 3208, 3208, 3208, 3208, 3994,
};
#endif /* __HX83112A_PARAM_H__ */
